0000000000101011
1111111111010110
0000000000011000
1111111111000010
0000000000011001
0000000000001001
1111111111101110
1111111111010001
0000000000000101
0000000000101010
0000000000001110
1111111110100110
0000000000111011
0000000000100001
0000000000000001
1111111111110111
1111111111100100
0000000000011110
1111111111101011
1111111110010110
0000000000100001
1111111111001001
1111111111011000
1111111111101001
1111111111111010
0000000000010110
0000000001010000
0000000000010001
0000000001111101
1111111111110001
1111111111101000
0000000001010101
1111111111101010
0000000000101110
0000000000011001
1111111111100000
1111111111000001
1111111111100001
1111111111001010
1111111111001101
0000000000001101
1111111111101010
1111111111011011
0000000000100111
0000000000011011
0000000000110111
1111111111101101
0000000000101101
0000000000010111
1111111110101111
1111111111011011
0000000000100010
0000000001000000
1111111111011000
1111111111111000
0000000000011011
0000000000001001
0000000000000100
1111111111011010
1111111111100110
0000000001001001
0000000000011001
1111111111110110
0000000001000101
1111111111000110
0000000000010101
0000000000001101
1111111111100111
1111111111011100
1111111111111110
1111111111011100
0000000000011100
0000000000101000
1111111111010001
0000000000110010
0000000000000110
0000000000001001
1111111111000110
0000000001010110
0000000000110110
0000000000010000
0000000001000001
1111111111100111
1111111111110001
0000000000001010
0000000000101011
1111111111010010
0000000001010011
0000000000111101
0000000001001110
1111111110101001
1111111111110011
0000000000001011
1111111111110000
0000000000010111
0000000000110000
0000000000011110
0000000001011010
0000000000011000
1111111110110111
1111111111100100
1111111111111101
1111111111111000
0000000001011000
1111111111110000
1111111111110101
1111111110111010
0000000001001110
1111111111101110
1111111111101011
0000000000100111
0000000000001001
1111111111110101
0000000000000000
0000000000000011
1111111111010100
1111111111111000
1111111110111011
1111111111101110
0000000000010110
