1111111111011011
1111111111101111
1111111110111110
0000000000010101
0000000001000001
1111111111011011
0000000000000000
0000000001010110
0000000000110000
1111111110011101
0000000001001110
1111111111010011
0000000000110110
0000000001001100
1111111110111000
1111111111011101
0000000000010100
1111111111000011
1111111110100101
1111111111111110
1111111111000100
0000000000000111
1111111101010010
0000000000101101
1111111101101000
0000000000010111
0000000000001101
0000000000000000
1111111111111001
1111111111111001
0000000000101101
1111111111100100
1111111111001111
1111111101111010
0000000000011001
0000000000010100
0000000000111100
1111111110001001
1111111111111010
1111111101111000
0000000000010100
1111111111111000
1111111111110001
1111111111000001
1111111111111001
0000000000011011
0000000000011011
1111111110110111
1111111111000111
1111111111101110
1111111110110101
1111111111111111
0000000000000110
0000000000101011
1111111111001000
0000000000011110
1111111111111111
1111111111111100
1111111111010100
0000000000100111
0000000000000011
1111111111011111
0000000000111110
1111111110000100
0000000001001000
0000000000001110
0000000000111001
0000000010001011
1111111111100111
0000000001000011
1111111110100000
0000000001001111
1111111111101010
1111111111111100
1111111111000000
0000000000010011
0000000001100101
1111111111100111
0000000000111100
0000000000110100
0000000000010101
1111111110101011
0000000000111011
1111111111101011
