0000001000111110
1111111100000001
0000000100011110
0000000100111001
0000000101110101
1111111001111011
0000001001110001
0000000000101111
1111111111111111
1111110110000111
1111111110011101
0000001000101111
0000000001100010
1111111010011010
0000001010010001
1111111010000101
1111110101100010
0000000111000000
1111110110100100
0000000010001011
0000000111011110
1111111011001111
1111110110001101
0000001000011011
0000001010111110
1111111100001111
0000000100000110
0000000100000110
1111111101101110
0000000110010000
1111110111001010
1111111110001111
1111111010111000
0000000111110000
1111111010100010
1111111010000011
0000000001101001
1111111101001011
1111110101001111
0000000100001001
1111111000011010
0000001010100100
0000000100100001
0000000001000001
0000000100010010
0000000011100111
1111111101110001
0000000100111010
0000000001110110
1111111110111001
0000000001110111
1111110111101110
0000001010001111
0000001010110100
1111111101001011
1111111001001101
1111110110100100
1111110101100110
1111111100010101
1111111101100011
1111111111010010
0000000100011110
1111110101110011
1111111101011110
0000000101011000
0000000010000110
0000000010010000
0000001001101110
1111110100111000
0000000110011111
1111111101011111
1111111010100110
0000000101011001
1111111000010010
1111111001101011
0000000100101111
1111111110110010
1111111000000110
1111110110011000
1111111111111011
1111111001100111
1111111100101111
0000000011100111
0000001011101010
1111110111001011
0000001001111010
0000000011111100
0000000110000100
0000000001011100
1111111001101001
1111111101101111
1111111101110000
1111110100101001
1111111110110111
1111111011000110
1111111010000000
0000001001011110
1111111111101011
0000001010010100
0000000111100011
1111110110010100
0000000000111100
0000000100011110
0000000100011110
0000000111010110
0000000110101110
0000000011111110
1111111000011101
1111111110101010
1111111111111011
0000000011111001
1111111100011010
0000000010001001
0000000010011110
0000000111111100
0000000010000100
0000000011111111
1111110011000101
1111111001011000
0000000101011010
0000001010011111
1111111011110011
1111111110100110
0000000101111000
1111111010001111
0000001001111011
1111111101011101
0000001001000011
0000000000101010
1111111010000000
1111110111000100
0000000010100101
0000000000110110
1111110100001101
1111111111100110
0000000111110001
1111111101011001
0000001010100100
1111111110101101
0000000000001110
1111111011101110
0000000101000000
1111110110111101
1111110110101111
1111111101111111
0000000010101010
0000001010110010
1111111001101110
0000000100011010
1111111010111000
1111111111111001
1111110111101000
1111111111000111
0000000011101101
1111111100100001
1111111101000011
0000001001001101
1111111000000101
1111111100100011
1111111110100011
0000001000001011
1111111000011000
0000000100001100
1111111101101110
1111110110110101
1111111111110011
0000000110010001
1111111010010101
0000001000000111
1111111001100111
0000001100101110
1111111101011000
0000000110011000
1111110101100100
0000000011110100
1111111111101100
1111111000101011
1111110111100010
0000000000110001
1111111001001110
1111111111001111
1111111100010101
0000000001010111
1111110101000010
1111110111101000
1111111100001101
0000001011001111
1111110111100101
0000001011110111
0000000011100001
0000000101110111
1111110111001101
1111111000110111
1111110110011011
0000000010101001
0000001010100110
0000000111010001
1111111101101100
1111111101011101
0000001001000011
1111111010111100
1111111001000101
0000000101001101
0000000001101101
0000001001110000
1111110011111011
1111111110000101
1111111000111001
0000000101111100
0000000010011101
0000000011110111
0000000011110111
0000001010001110
1111111111101101
1111111010000110
1111110101111101
1111110111101010
1111111101001010
1111111000011101
0000000110000011
0000000111010000
1111111110000000
1111110110010000
1111110110010011
0000000110111111
1111110100101011
0000000110001101
0000000111001100
0000001010101110
0000000000100100
1111111000111001
1111111101011010
1111110101100000
0000000111011100
0000000000001001
0000000001000010
1111111001101110
0000000010101000
0000000001011111
1111111010011110
0000000010011010
1111110101110010
0000000001011100
1111111100111001
0000001011010101
1111110111101000
1111111001110101
0000000010101111
1111110110000000
0000001010001011
1111111000100001
1111111000101011
1111111100110000
0000000000101110
1111111100001101
0000000011001001
0000001011010001
1111111000111110
1111111100000011
0000000000110000
1111111100101111
0000000110100111
1111111010111111
1111111110010010
0000000010000101
0000000100101100
0000000010010101
0000000101000011
0000000000110000
0000000101100011
0000000011001011
1111110111011100
0000000101010110
1111111001101100
0000000100111101
1111111110111011
0000000000010110
1111111011001111
0000001001001001
0000000000011011
1111110100110000
0000000111111011
0000000000010000
0000000100001010
1111111000010110
1111110111010000
0000000111111100
1111111100101011
0000000011010110
1111111000101101
0000000010001110
1111111001101111
1111111010001111
1111111111100111
1111110110110010
0000000000110101
0000000111001101
0000001001101101
1111111111110010
0000000111111010
1111110111101100
0000000100001101
0000000101111011
1111111001111000
0000000001111110
0000000011101100
0000000100100011
0000000100011001
0000000001110100
1111111010010111
1111111001000011
0000000111111001
1111111110110111
1111110110101001
0000000111001111
1111110111100101
0000000110111010
1111110111110000
1111111111001101
0000000101110000
1111111001101110
0000000000000101
1111110110000010
0000000000011001
0000000000011101
1111110111010101
1111111001010001
0000000010010001
1111111011100001
0000000111001100
0000001000010010
1111111000011111
0000000000001000
1111111010101010
0000001000101001
1111111001010101
0000001001001101
0000000000001001
1111111010010110
0000000011110111
1111110111111011
1111110111110101
1111110110100111
0000000010110110
0000001010011110
0000000111110101
0000000111001100
0000000111110100
1111111111000111
1111111010000011
0000001000111101
0000000001010101
0000000101000000
1111110011100001
0000000000000010
0000001001011100
0000000100001011
0000001001100011
1111111100110100
1111111101010100
1111111011011110
1111111001001010
0000001001101111
0000001001001110
1111111011010000
1111110101001000
0000000011100110
0000000001011100
1111110111010001
1111110110101100
1111111111101100
0000000011000111
1111111010100010
1111111011010011
1111111110101110
1111110101111110
1111111110110101
1111110111111101
0000000110111110
1111110101001000
0000000111001101
1111111001101001
0000000000110011
0000000100110110
1111111000011101
0000000001100101
1111111011110001
0000000000000110
0000000010001100
0000000001001011
1111111111001000
1111110111011101
0000001010110011
0000000010001011
0000000111001111
1111111001011011
0000001011011100
1111111011010111
1111111111110110
1111111101010001
1111111010001111
0000001001101010
0000000010010100
0000000111010000
0000000100001111
1111110110100011
0000000100000101
1111111011111101
0000000100110100
0000000010010101
0000000011011100
1111111100000000
0000000111001010
0000001100010000
0000000111100010
0000001011110011
1111111101011001
1111111000100101
1111111001010110
0000000101111001
0000000001010000
0000001010100110
1111110100100100
1111111111001011
0000000000001110
0000001000011001
0000000010000000
1111110111101101
0000000111010010
0000000011001101
0000000110111000
0000000100001110
1111111011101010
1111111010010011
1111111101100000
0000000000100111
0000001011000001
0000000010010010
1111111101111110
0000000010001001
0000000010001100
0000001001011000
1111111001110000
1111111001110111
1111111110011001
0000001001001001
0000001000111101
1111111100011100
1111111111001000
1111110111110111
0000000111101010
0000000101101101
0000001000001100
1111111100110001
0000000000001000
0000000100001000
1111111111100010
0000000000011110
1111111001011011
1111110110110110
0000000101001001
1111110110000101
1111110101000010
0000000111101010
0000000110110001
0000001011000111
1111111101000011
1111110110001001
0000001001111100
0000000011101010
0000001010001110
1111111000000001
0000000100000001
1111111011011101
0000000010110101
1111111100010000
0000000111100101
1111111011100111
1111111011100101
1111110011111001
0000000000100000
1111111001111110
0000000011010001
1111111001001011
1111111100010001
1111110110111101
1111111100100000
0000000111001001
0000000111111000
0000001101110001
0000000000000010
1111111111101001
1111111100100011
0000000010100010
0000000110100110
0000000001000000
0000000111101010
0000001000110101
1111110110111010
1111111110010110
1111110111111111
1111111101101110
1111110110010011
1111111000011010
0000001101001100
0000000011101011
1111110111110100
0000000011110010
0000000101101000
0000000010101100
0000000001111001
0000000111110100
0000001000110001
1111111111110000
1111111000110111
1111111101100001
0000001001011001
1111111010010100
1111110111000001
1111110110110000
0000000001101010
1111111010001110
1111110111111110
1111111110011000
0000001001111001
0000001001100001
0000000101100110
0000000101111001
1111111101010101
0000000110010011
0000000010000111
1111111110000111
0000000111011111
1111111111010100
0000000010111011
0000000100011100
0000000000101100
1111110111100101
1111111111010110
0000000000000101
0000000011100101
1111111101010110
1111111111100010
0000001001110110
0000000000011011
1111110110011101
0000000100101101
0000000010100110
0000000001111000
0000000110000001
1111110111010111
0000000111010110
1111111000110011
1111111000001101
0000000000000001
0000001010000001
0000001000011101
1111110101110000
1111111001101011
0000000110110011
0000000111101101
1111110110000011
0000000001100001
0000000110001100
0000000111100110
1111111011110111
1111111111011011
0000001001101100
1111111100101010
0000000001001111
1111111000100100
1111111011000000
1111111110001010
0000000010111100
1111111000011110
1111111001011110
1111111111000101
0000000001100010
0000000101111100
0000000100000110
1111110011111010
0000000110100110
1111111010010000
1111111101110011
0000001010101110
1111111011011011
0000000010100011
1111110101111010
0000001101100100
1111110111011101
0000001000101100
0000000011111101
0000001000001100
0000001000011001
1111111011001111
0000000110011010
0000001001000110
1111110110101000
1111111011000000
1111111110100011
0000000011101110
1111111100010100
0000000001010010
0000000011010000
0000000100111110
1111110101101101
1111111100110111
0000001101101010
1111111000010010
1111111010010011
0000000101111110
0000000100000000
0000001010111011
1111111110011011
0000000000011001
1111110101110011
1111110110101010
1111111000110001
1111111100011001
0000000110011110
0000001000101111
0000000101011000
1111111110110110
0000000010111011
1111111101100001
0000001011101111
1111111001100010
0000001000101111
1111111111000110
1111111110010101
0000000000101100
0000000101000100
1111111100000101
1111111100100011
0000000110011110
1111110111001000
1111111010101001
1111111101000111
0000000000111000
0000001010111111
0000000001101011
1111110100010001
1111111001110101
0000000001101011
1111110111111000
0000001100000000
1111111010101110
1111111101101000
0000000011110011
1111111011011111
1111111001011110
0000000011000000
1111111011111001
1111111110010010
0000000011010101
1111111011110010
1111111111010110
1111110111000110
1111111011110001
1111111000001000
0000001000000010
1111111010010000
1111110100100101
0000001000110100
0000000110000000
0000000110010010
1111111101000100
0000000101100011
0000000010000000
0000000110110111
1111110111111100
1111111101010001
0000001001000001
0000000001010011
0000000110101001
0000000110111011
1111111001101000
0000000010011000
1111111000111000
1111111001010011
0000000000001101
1111111110110001
1111111100000000
0000000100101110
1111111101111101
1111111100111011
1111111100011111
0000000000010110
0000000001110111
0000000111010110
0000000111010110
1111111000100101
1111111010110111
0000001000110101
1111111011000111
0000001101010010
0000001001100111
1111111111000011
1111111001111000
1111111101000110
1111111010110111
0000000111001101
0000000101100000
1111110101000100
0000000010110101
1111111011000000
0000000110011011
0000000100010101
0000000011110000
1111111101100110
0000000111111010
0000000000011111
0000001000101101
0000000001010100
1111111000000100
0000000111000111
0000001010100010
0000000001010111
1111111000010100
0000000011101101
0000000001110010
1111110110100010
1111111001111101
1111110100001101
0000001011001000
0000000111111110
0000000001111010
1111111000111111
0000000011010111
1111110100101111
1111111011000000
0000000100100001
1111111001011000
0000001001001000
0000000100100000
1111111111011010
1111111101110011
0000000100110100
1111111000010000
1111111010111010
0000000010011101
0000001000010101
0000000101001001
1111111011011010
0000001000111101
0000000100011000
0000000100101000
1111111001010001
1111111000110001
0000001001111111
0000001011001101
1111111000111000
0000000111110111
0000000111000010
1111110110111101
0000000010101000
1111111010010010
1111111000111001
0000000110010000
1111110110001111
0000000101010010
0000001001011001
1111111000110110
1111111111101000
1111110110000001
0000000110111010
1111110111011001
1111111110111011
0000001010011101
1111111000010000
1111111001111101
1111111111001000
0000001011101001
1111110111001010
0000000100001011
0000000000000111
0000000010100110
0000000100110101
0000000101010011
1111110101010000
0000001000110100
0000000001000011
1111111111110101
0000000010111111
1111111001001101
0000000010101011
1111110111011010
0000001000111101
1111111010101101
1111110101101010
1111111001001001
1111110110101100
1111110110010100
1111111010000110
1111111001110000
0000000111010011
1111111100100000
0000000001110000
0000000100001010
0000000010010010
1111111011001001
1111111100111000
1111110101010000
0000000000010100
1111111101000110
0000000111100100
1111111000000010
1111111001110001
0000000100011110
1111111111111101
0000000110101001
0000000101011101
0000000110101010
0000000011111101
0000000110100100
1111110110111111
0000000010010111
1111111001001100
1111111111110100
1111111000001110
1111110110010101
1111110111001000
0000000010101100
0000000010110101
0000001001110111
0000000100001100
0000000010010110
0000000111000010
0000000101011101
0000000000100111
1111111000101010
0000000110000101
1111111001110100
0000001001000111
0000000010111000
1111111010010000
1111110101000100
0000000000101110
1111111011010101
0000000100100000
